00
00
00
00
00
00
00
00
00
00
00
00
00
00
00
00
00
00
00
00
00
00
00
00
00
00
00
00
00
00
00
00
00
00
00
00
00
00
00
00
00
00
00
00
00
00
00
00
00
00
00
00
00
00
00
00
00
00
00
00
00
00
00
00
00
00
00
00
00
00
00
00
00
00
00
00
00
00
00
00
00
00
00
00
00
00
00
00
00
00
00
00
00
00
00
00
00
00
00
00
00
00
00
00
00
00
00
00
00
00
00
00
00
00
00
00
00
00
00
00
2E
34
10
31
2E
35
39
11
0E
12
03
3A
10
3E
3D
3B
34
3B
39
10
37
0F
30
0F
37
0F
39
38
0B
03
11
36
11
36
10
12
38
2F
39
3D
00
00
00
00
00
00
00
00
00
00
00
00
00
00
00
00
00
00
00
00
00
00
00
00
00
00
00
00
00
00
00
00
00
00
00
00
00
00
00
00
2F
35
0C
10
2B
39
37
31
31
39
3D
0E
11
12
39
0F
11
35
39
32
34
08
0F
11
04
08
0F
0C
36
10
33
37
02
0D
14
33
0B
2B
34
33
0F
33
10
0C
2E
36
38
39
11
39
37
03
33
0F
03
0B
3A
10
11
3A
32
0B
32
35
3E
10
12
0C
35
0E
2F
32
0F
31
35
34
37
2F
10
12
0C
35
2D
0B
0F
0F
0D
37
0F
0E
0C
36
38
39
37
3F
37
0F
0D
0D
37
33
11
35
39
34
31
38
38
36
10
34
0E
2F
08
36
0D
0D
39
37
34
38
38
36
2F
12
0F
35
31
0F
0E
0F
3B
0F
36
0D
14
37
37
0E
0F
35
11
3C
0D
38
0F
0A
37
35
36
3A
37
30
10
36
36
10
33
34
00
00
00
00
00
00
00
00
00
00
00
00
00
00
00
00
00
00
00
00
00
00
00
00
00
00
00
00
00
00
00
00
00
00
00
00
00
00
00
00
12
3D
0D
0A
10
3C
3C
39
2D
38
00
3A
0C
38
32
37
35
36
36
0F
10
0C
12
10
3C
0F
34
32
11
38
30
39
08
11
34
35
0E
34
3F
3A
32
0F
11
38
32
36
34
36
33
0E
0E
36
10
36
12
05
10
13
34
10
36
35
0F
00
35
33
3A
00
0E
38
0F
39
37
30
2E
36
3B
11
0D
0E
00
00
00
00
00
00
00
00
00
00
00
00
00
00
00
00
00
00
00
00
00
00
00
00
00
00
00
00
00
00
00
00
00
00
00
00
00
00
00
00
00
00
00
00
00
00
00
00
00
00
00
00
00
00
00
00
00
00
00
00
00
00
00
00
00
00
00
00
00
00
00
00
00
00
00
00
00
00
00
00
33
39
36
36
10
34
3C
38
36
39
37
0E
14
0E
10
36
3F
12
37
38
36
09
13
13
39
06
33
12
38
15
33
37
38
37
37
34
09
36
0E
0E
2F
0F
2E
3F
0C
12
0C
0F
30
0F
0C
37
0C
36
30
0F
0B
3C
34
31
37
12
2F
2F
31
37
0E
0B
0D
3F
0F
35
3A
30
32
2F
0C
02
0D
0C
11
0E
33
38
34
11
10
10
33
33
0E
38
36
35
11
0B
0D
0F
35
10
3A
37
31
05
34
11
35
0A
36
38
2F
36
37
30
0D
30
33
10
0A
0E
00
00
00
00
00
00
00
00
00
00
00
00
00
00
00
00
00
00
00
00
00
00
00
00
00
00
00
00
00
00
00
00
00
00
00
00
00
00
00
00
00
00
00
00
00
00
00
00
00
00
00
00
00
00
00
00
00
00
00
00
00
00
00
00
00
00
00
00
00
00
00
00
00
00
00
00
00
00
00
00
35
0D
2E
39
2F
37
11
0E
12
37
3A
10
3B
0B
0D
35
0E
11
37
35
36
0C
10
0F
11
34
08
07
36
32
30
36
3A
3D
11
31
10
34
37
34
00
00
00
00
00
00
00
00
00
00
00
00
00
00
00
00
00
00
00
00
00
00
00
00
00
00
00
00
00
00
00
00
00
00
00
00
00
00
00
00
2F
0E
12
0E
36
37
0E
3A
0D
37
0C
39
35
38
3B
11
3B
39
35
37
10
39
13
39
37
37
11
39
36
0E
0F
11
38
31
32
0B
31
10
3E
37
00
00
00
00
00
00
00
00
00
00
00
00
00
00
00
00
00
00
00
00
00
00
00
00
00
00
00
00
00
00
00
00
00
00
00
00
00
00
00
00
11
12
2E
08
10
38
0F
0F
2C
39
3C
10
37
10
38
38
32
0E
0B
3A
10
0F
34
36
3A
33
33
39
0F
0D
2D
0D
37
30
12
36
0C
33
37
38
00
00
00
00
00
00
00
00
00
00
00
00
00
00
00
00
00
00
00
00
00
00
00
00
00
00
00
00
00
00
00
00
00
00
00
00
00
00
00
00
00
00
00
00
00
00
00
00
00
00
00
00
00
00
00
00
00
00
00
00
00
00
00
00
00
00
00
00
00
00
00
00
00
00
00
00
00
00
00
00
0F
37
11
36
2D
11
33
34
0E
0B
0D
0F
36
10
36
0A
37
10
32
0C
09
32
31
34
0B
36
0A
01
0C
38
31
35
0F
2E
31
13
3B
0B
36
3A
00
00
00
00
00
00
00
00
00
00
00
00
00
00
00
00
00
00
00
00
00
00
00
00
00
00
00
00
00
00
00
00
00
00
00
00
00
00
00
00
00
00
00
00
00
00
00
00
00
00
00
00
00
00
00
00
00
00
00
00
00
00
00
00
00
00
00
00
00
00
00
00
00
00
00
00
00
00
00
00
38
10
32
2F
0D
35
0C
36
10
33
0E
34
38
36
12
11
34
36
38
36
39
30
34
3F
36
30
12
37
39
34
0F
11
13
0E
37
0B
12
0F
37
12
31
10
11
39
30
35
39
12
2B
39
36
11
37
0D
36
35
11
3B
34
12
0E
10
0F
34
0E
35
03
12
0F
11
2B
10
3E
32
34
38
3D
37
38
3B
00
00
00
00
00
00
00
00
00
00
00
00
00
00
00
00
00
00
00
00
00
00
00
00
00
00
00
00
00
00
00
00
00
00
00
00
00
00
00
00
00
00
00
00
00
00
00
00
00
00
00
00
00
00
00
00
00
00
00
00
00
00
00
00
00
00
00
00
00
00
00
00
00
00
00
00
00
00
00
00
00
00
00
00
00
00
00
00
00
00
00
00
00
00
00
00
00
00
00
00
00
00
00
00
00
00
00
00
00
00
00
00
00
00
00
00
00
00
00
00
00
00
00
00
00
00
00
00
00
00
00
00
00
00
00
00
00
00
00
00
00
00
00
00
00
00
00
00
00
00
00
00
00
00
00
00
00
00
00
00
0F
35
31
3E
31
0D
0E
0D
30
32
2F
0F
11
0E
32
0B
0A
0E
32
3B
39
31
2D
33
0E
30
06
0C
3A
08
32
35
3F
0B
08
11
0F
11
34
38
10
3D
2F
0B
32
0A
36
34
2E
0D
12
37
0B
38
39
10
34
0D
0F
32
38
12
0F
32
35
31
05
3C
0D
34
33
33
3C
10
10
0D
30
0E
36
0D
00
00
00
00
00
00
00
00
00
00
00
00
00
00
00
00
00
00
00
00
00
00
00
00
00
00
00
00
00
00
00
00
00
00
00
00
00
00
00
00
10
39
10
0E
11
37
3B
13
0E
10
03
10
36
10
39
34
3B
34
37
3C
0F
34
31
37
3B
09
0C
33
35
37
2D
12
12
32
10
37
36
33
38
3A
31
35
33
37
0F
0E
34
32
2F
36
0E
35
09
34
0F
0E
14
37
38
34
37
31
04
07
34
0B
0A
10
38
0A
31
11
3B
2A
37
10
09
11
0E
0D
0F
0F
2D
3A
0A
33
36
0F
2D
3D
38
0E
0D
0F
2D
34
0C
10
35
38
38
0F
10
2D
37
09
32
0A
32
0C
0E
35
3C
2E
31
0F
0D
33
0C
0B
2E
0D
0F
32
31
2E
0D
11
11
35
12
36
38
38
36
0B
3A
10
0F
11
37
35
35
10
3A
37
2F
35
36
0E
10
37
14
00
12
32
33
0F
3C
3A
00
00
00
00
00
00
00
00
00
00
00
00
00
00
00
00
00
00
00
00
00
00
00
00
00
00
00
00
00
00
00
00
00
00
00
00
00
00
00
00
10
0C
2C
33
38
32
36
11
0F
11
39
37
35
3E
36
31
38
37
38
11
34
38
10
37
34
30
0E
01
0E
0E
11
0E
0E
0E
0A
0D
32
31
3D
3C
10
10
0B
0E
35
35
35
11
29
3B
0C
32
0F
3B
36
10
11
0E
11
37
38
33
34
38
3A
3F
11
31
38
0D
0F
34
38
11
38
0C
34
31
3B
36
33
3C
35
35
12
13
3A
37
11
0F
36
35
15
38
36
00
37
38
39
0E
35
3B
37
0B
11
3C
0C
3C
15
14
32
0F
11
0E
38
32
32
34
36
38
00
00
00
00
00
00
00
00
00
00
00
00
00
00
00
00
00
00
00
00
00
00
00
00
00
00
00
00
00
00
00
00
00
00
00
00
00
00
00
00
34
39
36
14
0F
35
37
36
2F
35
30
0D
34
0C
05
0C
37
36
36
03
37
0B
0E
2D
10
12
11
37
33
38
3B
3A
11
0F
35
3A
32
12
15
11
11
38
0F
0F
31
32
3A
10
2E
0F
3E
3C
37
3B
0F
34
0F
35
38
36
36
0F
31
13
13
3B
39
02
0A
35
2E
3B
37
0F
0F
10
0B
31
3A
38
00
00
00
00
00
00
00
00
00
00
00
00
00
00
00
00
00
00
00
00
00
00
00
00
00
00
00
00
00
00
00
00
00
00
00
00
00
00
00
00
32
36
0A
36
32
0E
39
35
11
0F
3A
3B
0F
35
0F
37
0E
3A
38
37
10
33
0F
0A
3A
37
36
08
01
10
30
37
39
2E
0F
10
3B
32
11
0E
11
36
2F
12
2D
0E
36
08
31
33
33
36
0F
38
38
0B
38
38
37
38
39
0E
0D
30
31
02
10
15
32
3B
12
3C
09
35
0B
0B
08
12
36
11
00
00
00
00
00
00
00
00
00
00
00
00
00
00
00
00
00
00
00
00
00
00
00
00
00
00
00
00
00
00
00
00
00
00
00
00
00
00
00
00
12
33
0A
12
31
12
32
38
0F
33
0F
3C
0F
39
3D
06
37
34
37
0E
11
11
34
0F
33
34
2F
36
31
0D
0C
36
0F
0C
37
32
33
0F
3A
35
00
00
00
00
00
00
00
00
00
00
00
00
00
00
00
00
00
00
00
00
00
00
00
00
00
00
00
00
00
00
00
00
00
00
00
00
00
00
00
00
39
13
0F
35
31
33
0F
39
2E
11
12
3A
10
38
0D
0C
10
3B
36
32
12
14
33
0C
39
36
31
3B
0D
0A
2C
39
38
35
12
35
35
10
35
39
00
00
00
00
00
00
00
00
00
00
00
00
00
00
00
00
00
00
00
00
00
00
00
00
00
00
00
00
00
00
00
00
00
00
00
00
00
00
00
00
00
00
00
00
00
00
00
00
00
00
00
00
00
00
00
00
00
00
00
00
00
00
00
00
00
00
00
00
00
00
00
00
00
00
00
00
00
00
00
00
00
00
00
00
00
00
00
00
00
00
00
00
00
00
00
00
00
00
00
00
00
00
00
00
00
00
00
00
00
00
00
00
00
00
00
00
00
00
00
00
00
00
00
00
00
00
00
00
00
00
00
00
00
00
00
00
00
00
00
00
00
00
00
00
00
00
00
00
00
00
00
00
00
00
00
00
00
00
00
00
31
37
0F
0B
0F
13
38
33
2B
0D
35
10
00
10
3A
06
39
3A
37
34
0E
37
0C
38
0D
36
0A
38
3A
38
13
10
3A
34
0F
39
32
10
36
36
31
13
10
08
33
10
0A
39
10
0F
0F
3C
37
3A
3D
00
38
39
38
0C
36
12
0F
34
39
0F
31
3C
30
0C
2C
3E
36
30
0F
08
33
30
3A
0E
00
00
00
00
00
00
00
00
00
00
00
00
00
00
00
00
00
00
00
00
00
00
00
00
00
00
00
00
00
00
00
00
00
00
00
00
00
00
00
00
00
00
00
00
00
00
00
00
00
00
00
00
00
00
00
00
00
00
00
00
00
00
00
00
00
00
00
00
00
00
00
00
00
00
00
00
00
00
00
00
00
00
00
00
00
00
00
00
00
00
00
00
00
00
00
00
00
00
00
00
00
00
00
00
00
00
00
00
00
00
00
00
00
00
00
00
00
00
00
00
00
00
00
00
00
00
00
00
00
00
00
00
00
00
00
00
00
00
00
00
00
00
00
00
00
00
00
00
00
00
00
00
00
00
00
00
00
00
00
00
31
36
11
36
0F
13
39
0B
2F
31
10
39
33
0E
31
39
3C
3A
36
11
37
0D
2E
34
34
07
36
0E
10
37
11
3A
0F
39
10
35
37
08
0E
09
0C
0F
0A
0D
2F
35
38
38
11
38
38
33
34
37
0F
36
36
10
0E
37
0D
36
10
3E
3E
0C
33
00
11
0F
2C
00
39
2F
11
12
2E
31
39
0D
00
00
00
00
00
00
00
00
00
00
00
00
00
00
00
00
00
00
00
00
00
00
00
00
00
00
00
00
00
00
00
00
00
00
00
00
00
00
00
00
31
37
32
33
11
0B
39
09
11
31
32
35
36
0E
33
3C
3A
37
36
0F
34
08
0E
31
35
10
2F
10
0F
3E
33
38
11
36
0F
0E
38
12
0B
12
2F
39
11
0D
31
12
12
01
2B
10
33
39
35
38
33
00
3B
36
0F
0B
38
10
2F
31
0F
32
3D
0D
0D
33
32
36
3B
10
0E
12
0B
0B
39
3B
11
13
0F
39
13
36
10
36
0F
39
35
0F
3A
10
38
0C
3A
33
39
3A
0F
35
32
38
13
34
0F
36
39
0D
2E
37
37
32
38
12
00
3A
3C
3C
31
11
30
0A
2B
38
39
0F
2C
38
3B
10
0F
0E
0D
00
0D
38
35
37
10
33
07
34
11
03
0E
31
3D
37
0F
0E
03
2C
13
37
3C
2E
37
13
31
3A
2D
0E
31
13
39
0E
11
35
37
36
35
38
38
39
3A
3C
36
38
11
0E
0F
3A
0D
12
2F
0F
0E
39
11
0C
34
36
0A
32
0C
10
38
38
00
00
00
00
00
00
00
00
00
00
00
00
00
00
00
00
00
00
00
00
00
00
00
00
00
00
00
00
00
00
00
00
00
00
00
00
00
00
00
00
10
37
0F
37
31
36
3A
09
32
35
3D
36
12
39
39
35
02
12
0D
37
36
3C
32
32
38
0F
39
12
13
34
12
13
37
11
12
35
11
33
38
3B
00
00
00
00
00
00
00
00
00
00
00
00
00
00
00
00
00
00
00
00
00
00
00
00
00
00
00
00
00
00
00
00
00
00
00
00
00
00
00
00
00
00
00
00
00
00
00
00
00
00
00
00
00
00
00
00
00
00
00
00
00
00
00
00
00
00
00
00
00
00
00
00
00
00
00
00
00
00
00
00
2B
35
29
08
0A
38
0E
37
10
3A
38
0F
36
34
34
02
37
10
0B
37
0C
0F
11
0C
3A
0C
0D
10
3B
0B
0F
32
3B
2F
35
31
0F
32
01
39
31
3E
35
38
10
3B
35
11
30
10
2F
0E
37
33
13
0C
37
0E
0E
0E
37
37
2F
0D
0D
32
0E
3C
0E
15
30
0B
33
31
0E
35
31
10
3C
37
2F
32
0C
10
0D
13
35
0E
12
33
3C
37
32
39
0C
35
3E
33
0A
37
35
2F
0C
10
38
0A
33
10
3B
0D
2D
11
35
36
0E
0D
14
3F
35
31
30
3C
11
36
11
11
3B
0F
10
39
3B
0A
3C
32
39
0C
39
12
0E
35
38
11
32
38
0D
11
0D
0B
0E
37
31
0E
36
34
3A
33
2F
2D
39
3A
10
10
02
10
0B
15
36
0D
32
34
02
3E
35
3D
36
36
12
31
11
3A
10
36
12
38
39
36
36
37
38
10
10
37
3D
33
0E
34
0D
37
38
33
00
00
00
00
00
00
00
00
00
00
00
00
00
00
00
00
00
00
00
00
00
00
00
00
00
00
00
00
00
00
00
00
00
00
00
00
00
00
00
00
00
00
00
00
00
00
00
00
00
00
00
00
00
00
00
00
00
00
00
00
00
00
00
00
00
00
00
00
00
00
00
00
00
00
00
00
00
00
00
00
10
0B
0F
01
33
33
0D
08
28
37
10
3B
35
39
39
10
39
34
10
35
39
11
30
3A
37
10
0B
34
08
31
0F
0A
3B
34
11
0F
30
0B
39
39
32
0D
10
31
0F
04
0F
32
2A
10
30
05
33
10
2D
36
11
34
3E
38
36
31
2E
2F
11
39
35
07
36
0D
10
0E
3D
0D
34
07
10
0A
0E
03
00
00
00
00
00
00
00
00
00
00
00
00
00
00
00
00
00
00
00
00
00
00
00
00
00
00
00
00
00
00
00
00
00
00
00
00
00
00
00
00
12
11
0C
13
12
37
3A
38
11
39
37
3B
35
35
13
37
3E
12
35
39
38
0D
34
13
3C
32
36
3A
36
10
0D
37
34
03
36
32
11
39
01
36
30
14
0C
15
35
39
37
34
10
3A
35
39
0D
39
35
36
37
39
35
37
36
10
34
0D
3A
14
37
39
13
10
11
01
15
10
36
0D
2F
35
39
3B
11
35
2E
32
11
10
3A
2F
0F
32
04
34
10
3A
39
08
36
35
3B
0A
36
2F
32
0E
0D
08
09
05
3D
0F
0F
0F
0F
35
11
0C
36
27
35
37
2D
0F
0E
0C
32
0E
0C
0F
0F
34
3C
31
08
39
39
34
37
12
32
0D
36
33
0F
34
35
0C
32
11
37
0C
2C
0F
11
0E
08
2E
2E
2D
3A
12
33
0D
10
3A
0E
10
34
12
2B
35
0B
0C
34
0F
0F
0C
39
35
37
10
38
32
2F
07
0B
33
00
38
38
0F
10
36
08
33
34
34
33
0D
0B
38
0F
0D
2D
34
37
2E
0C
10
2C
12
0C
34
34
3B
36
0E
37
33
0F
0E
0E
36
0F
38
33
30
0E
3A
0B
0E
2E
33
0D
0A
0A
0F
2F
04
3A
3D
0F
37
2E
37
0D
36
38
00
2E
38
3A
0A
31
0F
30
36
11
0F
0E
39
0F
0E
2E
3A
37
0D
32
0C
0E
0E
10
36
3B
34
0F
37
07
33
0E
3F
33
35
10
35
37
02
3C
0C
31
3D
37
34
33
35
0F
0C
39
3A
3A
12
36
11
08
0A
11
06
11
12
32
34
11
39
39
35
11
31
33
2E
13
14
35
37
30
10
10
34
39
38
32
38
39
33
0A
0E
10
33
10
39
36
39
37
07
36
10
3B
11
35
10
36
36
32
38
10
11
39
12
0E
34
10
0C
00
00
00
00
00
00
00
00
00
00
00
00
00
00
00
00
00
00
00
00
00
00
00
00
00
00
00
00
00
00
00
00
00
00
00
00
00
00
00
00
10
3A
11
10
32
33
14
12
0E
3B
32
34
34
39
39
04
34
38
35
38
10
32
31
38
13
0E
0D
39
35
0C
12
0C
3F
2D
32
11
32
0F
3E
3A
00
00
00
00
00
00
00
00
00
00
00
00
00
00
00
00
00
00
00
00
00
00
00
00
00
00
00
00
00
00
00
00
00
00
00
00
00
00
00
00
00
00
00
00
00
00
00
00
00
00
00
00
00
00
00
00
00
00
00
00
00
00
00
00
00
00
00
00
00
00
00
00
00
00
00
00
00
00
00
00
0F
3C
11
34
31
11
3C
36
0F
11
3C
36
38
0E
04
34
3A
0E
0E
37
38
0F
38
34
3C
32
35
3C
0F
36
34
37
0F
33
3E
11
35
38
10
10
38
35
36
34
0D
0E
10
37
32
11
0C
3B
0B
0F
0E
08
33
38
37
34
39
35
2F
0F
13
0F
33
35
35
38
12
3A
39
34
32
31
12
10
11
06
00
00
00
00
00
00
00
00
00
00
00
00
00
00
00
00
00
00
00
00
00
00
00
00
00
00
00
00
00
00
00
00
00
00
00
00
00
00
00
00
00
00
00
00
00
00
00
00
00
00
00
00
00
00
00
00
00
00
00
00
00
00
00
00
00
00
00
00
00
00
00
00
00
00
00
00
00
00
00
00
00
00
00
00
00
00
00
00
00
00
00
00
00
00
00
00
00
00
00
00
00
00
00
00
00
00
00
00
00
00
00
00
00
00
00
00
00
00
00
00
2E
0F
2D
36
32
12
0D
12
10
37
0E
37
02
37
37
0D
34
12
0D
35
39
37
34
33
0F
36
0B
09
39
08
2F
02
36
0F
3D
10
35
0B
3E
3B
00
00
00
00
00
00
00
00
00
00
00
00
00
00
00
00
00
00
00
00
00
00
00
00
00
00
00
00
00
00
00
00
00
00
00
00
00
00
00
00
0F
0A
2E
36
33
11
0D
0F
2B
35
0C
39
37
3E
37
07
35
37
36
0C
11
11
33
11
0D
34
30
38
07
31
10
36
0A
0F
34
0B
3B
0C
38
38
09
32
0E
34
31
35
39
0B
0E
37
37
38
34
39
37
0B
39
13
0F
10
11
33
33
37
3B
35
10
0F
37
32
11
0B
11
36
14
13
35
2B
3D
3E
36
39
12
32
12
37
3C
0A
30
38
32
39
14
36
0D
0E
35
39
37
3B
3D
33
31
07
38
0F
10
33
3B
3E
0F
37
36
0B
13
0D
0E
12
3C
37
32
14
0F
0B
31
11
0E
04
33
34
39
35
10
03
37
39
12
33
11
35
35
38
35
30
13
11
37
0D
38
0A
2E
39
3A
0F
13
2F
02
30
37
12
11
37
36
38
11
30
39
10
37
34
34
31
35
34
0F
09
10
34
3B
39
36
32
0C
06
10
39
0F
0C
37
3B
30
0F
3B
32
0C
31
0D
10
10
12
12
13
2F
11
34
11
37
0E
10
32
38
3A
3C
0F
05
3B
38
35
35
35
10
39
32
31
36
31
2D
3D
10
37
36
03
0F
11
09
32
32
11
10
11
33
10
34
36
0D
39
0F
34
2F
34
0C
0E
32
0D
0F
09
38
0F
0E
35
36
0E
30
09
35
31
2B
36
0E
39
31
10
0E
36
36
0F
2F
11
0D
0C
00
00
00
00
00
00
00
00
00
00
00
00
00
00
00
00
00
00
00
00
00
00
00
00
00
00
00
00
00
00
00
00
00
00
00
00
00
00
00
00
2F
10
0D
11
2F
38
0D
32
2C
36
10
39
11
3B
10
09
08
11
32
11
36
31
34
13
36
3C
38
10
01
0B
10
38
32
0D
36
32
0D
34
35
39
0D
35
29
0D
37
0C
0F
33
2F
13
3E
35
07
3A
03
36
33
11
0D
3E
3C
36
36
31
35
11
35
08
39
0C
12
0D
38
10
07
38
2A
2F
12
13
35
34
11
14
11
38
36
38
10
37
17
38
13
39
33
02
36
36
37
0F
34
0C
37
0D
39
37
32
35
33
38
0F
11
0F
0E
35
35
12
3D
3B
3B
00
00
00
00
00
00
00
00
00
00
00
00
00
00
00
00
00
00
00
00
00
00
00
00
00
00
00
00
00
00
00
00
00
00
00
00
00
00
00
00
0F
11
0F
34
12
33
0C
32
2A
0C
38
0D
35
0E
35
33
3A
0A
0E
0E
35
3B
10
37
0E
31
02
34
35
09
0F
07
0B
35
0F
37
33
2D
39
38
00
00
00
00
00
00
00
00
00
00
00
00
00
00
00
00
00
00
00
00
00
00
00
00
00
00
00
00
00
00
00
00
00
00
00
00
00
00
00
00
00
00
00
00
00
00
00
00
00
00
00
00
00
00
00
00
00
00
00
00
00
00
00
00
00
00
00
00
00
00
00
00
00
00
00
00
00
00
00
00
00
00
00
00
00
00
00
00
00
00
00
00
00
00
00
00
00
00
00
00
00
00
00
00
00
00
00
00
00
00
00
00
00
00
00
00
00
00
00
00
00
00
00
00
00
00
00
00
00
00
00
00
00
00
00
00
00
00
00
00
00
00
00
00
00
00
00
00
00
00
00
00
00
00
00
00
00
00
00
00
00
00
00
00
00
00
00
00
00
00
00
00
00
00
00
00
00
00
00
00
00
00
00
00
00
00
00
00
00
00
00
00
00
00
00
00
00
00
00
00
12
0F
0D
0F
35
37
35
0E
12
3B
39
3E
0D
3D
00
34
12
33
37
3E
35
32
35
3A
39
0C
35
35
39
0C
10
3C
33
10
35
11
0F
36
3C
37
10
12
0D
31
33
0D
06
2F
2E
11
36
35
34
3D
0E
0D
3D
35
35
34
37
34
0A
10
34
0E
10
0E
3B
0E
0F
39
35
0B
08
3F
0D
2B
33
32
31
0F
33
31
2C
0C
0E
36
0F
0E
0F
0F
35
10
33
04
36
34
37
0D
34
39
0F
31
0E
33
04
38
35
34
31
0E
0F
0C
33
10
3E
03
36
12
0E
38
2F
0C
32
38
39
11
11
3A
38
32
0C
39
3A
0B
34
3C
38
0E
0F
10
10
33
0D
0F
10
39
10
34
0F
0C
0B
2F
31
31
31
2D
3B
3C
2E
0F
09
3A
34
11
3F
0C
2D
3B
38
14
3A
13
33
36
37
35
0E
38
3B
35
36
34
35
0F
39
0F
38
0D
12
3A
3C
10
11
11
32
32
39
12
33
3B
11
35
31
12
38
11
2F
0F
35
0E
38
10
35
3D
35
35
11
0C
10
36
0F
38
0C
10
3F
39
07
38
31
36
38
33
0B
35
36
10
35
0E
10
10
12
0F
10
36
37
34
0E
3A
36
11
35
36
37
32
36
10
32
3A
39
0C
30
38
39
10
34
03
36
0E
0D
10
36
31
36
10
12
36
3B
38
10
38
30
0E
35
12
37
35
2F
0E
35
11
0E
01
39
02
36
09
35
0C
3D
38
10
34
0A
32
0B
38
39
39
10
0B
33
0E
0A
35
35
0F
3C
36
00
00
00
00
00
00
00
00
00
00
00
00
00
00
00
00
00
00
00
00
00
00
00
00
00
00
00
00
00
00
00
00
00
00
00
00
00
00
00
00
00
00
00
00
00
00
00
00
00
00
00
00
00
00
00
00
00
00
00
00
00
00
00
00
00
00
00
00
00
00
00
00
00
00
00
00
00
00
00
00
35
3F
32
0F
10
37
12
3C
30
0E
3F
0C
13
0F
34
3B
32
11
0E
36
0F
13
0E
33
3A
32
32
33
33
37
37
38
34
11
13
39
0D
34
3F
37
34
38
2E
10
31
0F
38
3A
10
12
3F
10
39
0E
0E
31
36
36
10
34
0C
35
0F
3A
3C
33
0A
39
38
36
3D
0D
10
0E
39
31
34
31
10
0D
00
00
00
00
00
00
00
00
00
00
00
00
00
00
00
00
00
00
00
00
00
00
00
00
00
00
00
00
00
00
00
00
00
00
00
00
00
00
00
00
38
03
32
38
10
13
39
3B
37
0E
34
3D
12
12
11
38
32
38
34
38
39
08
31
0E
35
32
34
2F
13
3B
32
37
10
10
0F
33
11
0E
3F
09
2E
38
30
07
10
38
37
11
2C
37
07
0D
0D
36
38
35
31
0F
0D
10
0F
33
11
0B
37
2E
36
36
0C
3F
31
09
0C
13
35
12
0E
36
3B
37
10
3A
32
37
11
0F
39
11
32
38
39
0D
38
37
0D
06
3B
0E
35
35
3A
32
10
12
0B
03
11
11
3D
38
32
05
36
0D
35
33
0D
2F
3A
33
00
00
00
00
00
00
00
00
00
00
00
00
00
00
00
00
00
00
00
00
00
00
00
00
00
00
00
00
00
00
00
00
00
00
00
00
00
00
00
00
00
00
00
00
00
00
00
00
00
00
00
00
00
00
00
00
00
00
00
00
00
00
00
00
00
00
00
00
00
00
00
00
00
00
00
00
00
00
00
00
33
3D
31
36
0F
12
37
35
2B
36
0D
36
11
35
02
0D
34
39
37
11
04
11
30
0E
0E
0C
0B
30
33
36
30
04
08
11
39
11
0E
09
3C
35
10
33
10
0C
35
36
14
34
32
37
36
35
11
3A
31
3C
37
10
35
3B
13
31
35
0F
3C
3D
32
16
3A
0F
11
34
15
0D
35
38
10
39
3A
00
32
10
30
37
11
38
0F
34
2C
37
09
36
33
34
0E
3E
39
38
34
12
39
0D
01
0D
38
0C
33
11
11
10
30
36
31
0F
36
08
10
30
0F
10
00
00
00
00
00
00
00
00
00
00
00
00
00
00
00
00
00
00
00
00
00
00
00
00
00
00
00
00
00
00
00
00
00
00
00
00
00
00
00
00
00
00
00
00
00
00
00
00
00
00
00
00
00
00
00
00
00
00
00
00
00
00
00
00
00
00
00
00
00
00
00
00
00
00
00
00
00
00
00
00
33
32
11
36
32
34
0B
31
2E
32
10
33
3A
38
35
0A
12
36
10
39
0F
36
10
10
0A
0E
2B
0A
32
0E
30
00
14
0D
0B
0B
3A
10
37
35
00
00
00
00
00
00
00
00
00
00
00
00
00
00
00
00
00
00
00
00
00
00
00
00
00
00
00
00
00
00
00
00
00
00
00
00
00
00
00
00
00
00
00
00
00
00
00
00
00
00
00
00
00
00
00
00
00
00
00
00
00
00
00
00
00
00
00
00
00
00
00
00
00
00
00
00
00
00
00
00
31
39
31
0C
0D
37
38
36
2C
38
38
0E
0B
33
0F
07
0C
13
34
11
3A
0D
33
0F
34
34
0F
0B
36
35
30
0B
08
0F
3B
11
13
2F
38
37
0C
33
0F
37
32
36
37
10
34
37
3A
0F
37
38
32
34
36
11
30
34
35
12
11
11
36
07
0B
10
0D
0C
2D
12
0D
0F
08
32
0E
32
38
35
36
37
0E
09
0E
38
3A
13
11
37
3E
00
13
12
07
37
37
33
12
37
32
12
35
0F
39
35
32
35
06
37
2D
09
05
0F
3B
31
12
33
3D
39
12
35
2F
0E
0B
35
0A
38
11
35
12
35
36
38
35
10
3A
35
39
38
35
10
10
38
35
10
0E
0E
34
0B
2D
0F
33
31
0D
31
10
0E
3B
37
00
00
00
00
00
00
00
00
00
00
00
00
00
00
00
00
00
00
00
00
00
00
00
00
00
00
00
00
00
00
00
00
00
00
00
00
00
00
00
00
10
39
0F
0F
36
11
36
36
2C
0F
3C
35
03
3B
37
30
13
0D
0C
11
10
35
34
33
0D
39
33
09
37
0C
2F
11
35
10
33
36
11
36
37
3B
32
32
0E
12
2B
37
36
11
31
3A
3C
11
33
0F
0C
03
34
33
10
3D
10
3A
09
39
38
08
0F
32
37
35
11
34
12
0D
30
3C
11
31
3A
13
00
00
00
00
00
00
00
00
00
00
00
00
00
00
00
00
00
00
00
00
00
00
00
00
00
00
00
00
00
00
00
00
00
00
00
00
00
00
00
00
31
10
10
3C
11
11
32
34
2F
3C
06
38
32
34
0E
10
11
10
0C
33
39
32
34
07
35
38
04
0B
3C
0F
2E
38
3A
33
34
3B
0B
13
0B
08
36
35
13
12
0F
35
3C
38
0E
38
3B
12
06
0B
0B
34
34
37
36
39
0F
10
37
0B
39
31
37
36
30
35
33
37
0E
10
39
11
36
36
11
10
00
00
00
00
00
00
00
00
00
00
00
00
00
00
00
00
00
00
00
00
00
00
00
00
00
00
00
00
00
00
00
00
00
00
00
00
00
00
00
00
2F
3C
36
34
10
33
10
36
3F
12
0E
31
36
36
34
0C
37
3A
37
0E
0F
38
10
32
34
14
0D
36
08
34
32
0C
10
33
0A
14
0A
07
39
35
00
00
00
00
00
00
00
00
00
00
00
00
00
00
00
00
00
00
00
00
00
00
00
00
00
00
00
00
00
00
00
00
00
00
00
00
00
00
00
00
00
00
00
00
00
00
00
00
00
00
00
00
00
00
00
00
00
00
00
00
00
00
00
00
00
00
00
00
00
00
00
00
00
00
00
00
00
00
00
00
00
00
00
00
00
00
00
00
00
00
00
00
00
00
00
00
00
00
00
00
00
00
00
00
00
00
00
00
00
00
00
00
00
00
00
00
00
00
00
00
00
00
00
00
00
00
00
00
00
00
00
00
00
00
00
00
00
00
00
00
00
00
00
00
00
00
00
00
00
00
00
00
00
00
00
00
00
00
00
00
0F
0D
0C
0D
32
2D
0C
0E
28
35
0D
0C
34
36
38
0D
38
0D
0E
0D
39
35
2E
35
0D
09
0C
34
34
07
0F
0B
34
0D
33
2F
30
0C
3C
39
2B
36
2D
09
2D
35
34
04
2C
0E
33
0D
09
39
10
08
10
0E
0C
0D
0E
2E
2E
07
2E
04
0E
09
0A
36
10
0A
08
2D
0D
36
3D
11
36
35
00
00
00
00
00
00
00
00
00
00
00
00
00
00
00
00
00
00
00
00
00
00
00
00
00
00
00
00
00
00
00
00
00
00
00
00
00
00
00
00
34
36
33
36
0B
33
36
35
2F
39
36
11
0B
0F
10
35
10
35
35
3B
10
0C
0D
07
35
07
34
10
32
12
30
11
35
2C
37
13
0D
37
0E
0D
2E
36
10
12
2E
2F
0F
34
11
0F
31
3A
35
35
31
05
3C
0E
0F
0C
34
30
34
0E
37
04
0D
15
39
35
32
33
11
0C
0D
34
0D
10
3C
3C
00
00
00
00
00
00
00
00
00
00
00
00
00
00
00
00
00
00
00
00
00
00
00
00
00
00
00
00
00
00
00
00
00
00
00
00
00
00
00
00
00
00
00
00
00
00
00
00
00
00
00
00
00
00
00
00
00
00
00
00
00
00
00
00
00
00
00
00
00
00
00
00
00
00
00
00
00
00
00
00
2F
10
0C
0E
2A
37
3B
33
31
38
39
0D
10
11
0F
33
32
0E
0F
37
35
38
11
0C
39
0D
35
3A
3B
34
11
36
0F
0D
33
3A
0B
33
35
0C
12
3B
38
39
11
0B
37
3D
2F
11
12
0C
38
0D
39
0E
36
0E
36
0E
3A
33
2E
37
0D
13
0E
04
35
37
34
39
37
33
33
34
33
0F
10
03
00
00
00
00
00
00
00
00
00
00
00
00
00
00
00
00
00
00
00
00
00
00
00
00
00
00
00
00
00
00
00
00
00
00
00
00
00
00
00
00
00
00
00
00
00
00
00
00
00
00
00
00
00
00
00
00
00
00
00
00
00
00
00
00
00
00
00
00
00
00
00
00
00
00
00
00
00
00
00
00
13
10
32
32
30
31
0B
3E
10
11
0B
3C
12
39
39
0F
3B
33
39
32
37
37
32
0F
36
0F
05
33
0C
0C
2E
34
0E
0E
0B
2C
3F
0F
3A
3A
2F
38
32
32
09
31
35
35
11
35
0C
0F
36
0F
36
3E
38
0E
12
10
35
0F
10
32
11
12
03
36
31
36
33
0E
0E
05
35
33
33
0D
39
0F
00
00
00
00
00
00
00
00
00
00
00
00
00
00
00
00
00
00
00
00
00
00
00
00
00
00
00
00
00
00
00
00
00
00
00
00
00
00
00
00
12
35
0F
34
33
0E
00
34
11
34
38
38
10
37
0E
0A
3A
34
38
39
0E
33
31
06
12
32
11
3E
0C
0E
2D
0C
34
31
37
0A
39
31
12
11
10
39
31
3A
30
12
10
35
2F
34
11
39
36
38
0E
03
38
0D
0F
01
38
36
0F
03
39
08
32
0F
37
31
31
0F
39
2F
33
10
11
06
0B
0D
00
00
00
00
00
00
00
00
00
00
00
00
00
00
00
00
00
00
00
00
00
00
00
00
00
00
00
00
00
00
00
00
00
00
00
00
00
00
00
00
34
12
3A
36
2E
36
10
33
2C
36
36
0F
10
0E
0E
37
3C
33
12
35
10
11
31
11
12
32
08
38
35
09
12
10
04
11
3B
35
3C
33
36
32
00
00
00
00
00
00
00
00
00
00
00
00
00
00
00
00
00
00
00
00
00
00
00
00
00
00
00
00
00
00
00
00
00
00
00
00
00
00
00
00
2F
3D
2C
34
0C
38
0E
12
0F
39
14
0E
0E
11
3B
11
34
13
33
38
10
37
32
35
35
09
0E
06
12
33
10
31
32
35
35
09
2F
05
34
38
00
00
00
00
00
00
00
00
00
00
00
00
00
00
00
00
00
00
00
00
00
00
00
00
00
00
00
00
00
00
00
00
00
00
00
00
00
00
00
00
10
37
2E
0E
10
36
3C
32
29
38
3A
36
10
39
01
35
34
33
0F
39
0C
0D
0F
31
3E
07
35
3E
0D
3A
10
0E
39
32
37
10
0E
33
0F
10
32
38
2F
10
34
11
38
0F
34
0F
33
36
13
39
37
3A
10
0F
0F
0E
38
3C
33
0D
0C
39
31
09
34
38
30
36
02
0D
0C
35
10
13
37
38
34
3B
12
0D
11
36
3A
39
0F
10
3E
10
0F
10
39
36
39
3A
37
36
0D
3B
33
33
39
13
0C
37
0F
37
33
10
31
10
11
33
32
31
39
38
00
00
00
00
00
00
00
00
00
00
00
00
00
00
00
00
00
00
00
00
00
00
00
00
00
00
00
00
00
00
00
00
00
00
00
00
00
00
00
00
00
00
00
00
00
00
00
00
00
00
00
00
00
00
00
00
00
00
00
00
00
00
00
00
00
00
00
00
00
00
00
00
00
00
00
00
00
00
00
00
33
36
0F
0B
30
33
0D
10
11
13
38
3A
0F
39
36
3F
0F
39
34
35
34
33
33
35
36
10
31
0E
05
36
2D
0F
32
0E
06
0A
0F
13
3D
3E
00
00
00
00
00
00
00
00
00
00
00
00
00
00
00
00
00
00
00
00
00
00
00
00
00
00
00
00
00
00
00
00
00
00
00
00
00
00
00
00
30
36
32
35
10
32
3B
02
30
0F
3B
36
33
36
10
30
0B
3A
36
11
37
0B
30
0F
11
0D
35
0F
10
39
12
0E
35
36
10
36
10
32
12
3B
2F
0A
2F
11
32
0F
2F
35
10
12
09
37
31
39
12
3D
0D
0F
0C
0C
37
31
32
0A
0F
36
31
37
38
0F
0F
0B
33
2D
34
0C
37
0B
0B
36
33
38
0F
3B
3C
34
3A
10
35
37
3C
35
33
36
11
35
0B
38
10
38
11
3B
12
10
3A
12
37
0F
0F
37
2F
38
37
0F
36
32
0F
36
11
0D
2F
0F
30
38
34
31
0E
34
29
12
0F
36
35
3A
38
09
37
3B
38
08
39
11
10
35
10
10
2E
3C
0E
0D
11
0C
3F
33
0F
10
31
0D
39
38
00
00
00
00
00
00
00
00
00
00
00
00
00
00
00
00
00
00
00
00
00
00
00
00
00
00
00
00
00
00
00
00
00
00
00
00
00
00
00
00
32
0B
31
10
30
36
11
34
11
12
32
11
38
0D
38
0C
34
38
37
37
36
11
0E
35
0D
32
0F
3B
11
0D
10
31
35
32
06
33
39
0E
3B
3B
32
0E
0D
0D
10
35
3B
35
2F
10
39
37
38
35
0F
34
37
35
11
3A
35
37
0E
32
3C
35
07
35
11
37
11
0D
38
11
38
36
0F
36
13
0D
31
38
32
0B
10
11
35
36
30
34
0D
30
32
36
31
0E
12
37
10
13
10
0D
30
35
0F
3F
0F
0C
11
0D
32
34
01
2E
38
33
0D
34
11
3F
31
35
36
0D
0E
2F
0C
3B
0F
0F
0F
07
2F
33
31
07
11
37
34
0E
0F
0F
2D
3F
33
34
2B
09
08
0B
2F
0C
09
2F
0E
33
10
0C
38
3B
31
11
0B
07
0F
35
35
10
10
39
3B
33
31
36
0D
10
12
34
13
3B
34
10
35
0F
38
32
10
03
33
0E
2A
34
0E
36
36
09
0D
33
3C
34
00
00
00
00
00
00
00
00
00
00
00
00
00
00
00
00
00
00
00
00
00
00
00
00
00
00
00
00
00
00
00
00
00
00
00
00
00
00
00
00
33
0A
37
39
0E
11
0F
11
30
33
0E
13
38
0F
08
0E
33
36
36
33
38
36
0D
3B
33
2E
0A
05
36
36
33
36
36
33
10
10
30
0C
10
0F
00
00
00
00
00
00
00
00
00
00
00
00
00
00
00
00
00
00
00
00
00
00
00
00
00
00
00
00
00
00
00
00
00
00
00
00
00
00
00
00
35
01
2A
0A
0E
34
0E
36
0F
11
39
36
0E
36
12
37
34
3F
10
39
0F
30
32
0D
3D
10
34
34
35
34
2F
35
11
0C
10
11
0D
36
3C
3A
12
3A
10
35
2E
11
11
34
31
33
11
06
37
12
0B
07
3A
0E
0C
3D
37
0D
32
13
35
35
2D
37
0F
36
31
0D
0E
3D
33
33
3B
0D
3B
35
36
38
10
10
3D
33
0C
3F
11
33
11
37
0A
38
3A
11
35
35
0E
13
10
32
34
35
11
0C
0E
36
00
2F
2F
32
2C
0F
35
2F
12
0D
3D
3D
00
00
00
00
00
00
00
00
00
00
00
00
00
00
00
00
00
00
00
00
00
00
00
00
00
00
00
00
00
00
00
00
00
00
00
00
00
00
00
00
00
00
00
00
00
00
00
00
00
00
00
00
00
00
00
00
00
00
00
00
00
00
00
00
00
00
00
00
00
00
00
00
00
00
00
00
00
00
00
00
36
37
34
33
36
10
0D
3A
30
10
0C
37
13
33
12
10
34
35
10
31
11
07
32
0E
2E
37
10
39
31
0E
31
10
35
01
34
30
3A
11
10
0D
00
00
00
00
00
00
00
00
00
00
00
00
00
00
00
00
00
00
00
00
00
00
00
00
00
00
00
00
00
00
00
00
00
00
00
00
00
00
00
00
12
3C
30
00
12
36
3B
38
11
37
02
0E
13
10
37
34
3A
0E
39
11
38
36
32
03
0E
0E
07
3C
39
37
32
0E
0D
10
3A
33
2F
33
3B
3A
34
31
2F
36
2A
35
36
34
10
34
0E
10
0B
11
0C
10
11
34
3D
0D
36
0B
33
0F
0E
36
0A
01
36
39
11
35
0D
33
39
0E
3D
0D
36
36
2D
36
0E
36
32
37
38
0D
10
39
3B
33
13
3D
37
34
10
12
0E
3B
12
3C
39
39
11
11
35
34
0F
35
11
0F
36
0C
35
12
34
31
3C
38
00
00
00
00
00
00
00
00
00
00
00
00
00
00
00
00
00
00
00
00
00
00
00
00
00
00
00
00
00
00
00
00
00
00
00
00
00
00
00
00
30
39
11
33
0F
0E
39
35
11
3C
31
0E
39
08
37
09
39
0F
0D
3B
0A
0F
10
39
0D
33
0C
39
0F
37
32
35
35
34
32
0A
34
11
37
35
32
33
11
39
30
35
3E
10
3A
36
3B
3D
13
37
0F
36
0D
39
38
37
35
02
13
0F
3A
38
3B
10
11
37
10
38
39
3C
0E
35
02
35
11
0E
00
00
00
00
00
00
00
00
00
00
00
00
00
00
00
00
00
00
00
00
00
00
00
00
00
00
00
00
00
00
00
00
00
00
00
00
00
00
00
00
00
00
00
00
00
00
00
00
00
00
00
00
00
00
00
00
00
00
00
00
00
00
00
00
00
00
00
00
00
00
00
00
00
00
00
00
00
00
00
00
13
3C
32
36
31
31
39
30
31
11
3C
11
31
0E
11
33
12
32
38
10
0E
0D
0B
0B
3D
10
0F
03
0D
36
35
37
36
32
05
35
35
30
0D
0D
31
3A
33
11
34
0F
34
37
32
11
33
3A
03
38
33
0E
34
3A
34
34
3A
12
32
10
0B
0E
12
36
10
10
35
37
0E
10
36
0A
0A
10
37
3A
10
39
2F
09
2E
33
38
36
10
11
35
3B
3C
38
37
3C
11
0E
0F
0E
35
11
33
35
0E
34
0C
3B
0E
39
30
0E
33
30
39
12
07
10
3F
3D
12
38
2F
33
33
32
3A
36
38
39
36
32
10
37
0C
09
0E
33
3A
03
36
0C
0F
0F
0F
0E
0C
0A
33
0C
2E
35
0E
0E
33
03
3C
2F
0F
0B
38
15
33
35
13
35
3A
12
10
12
37
34
36
37
0E
04
13
38
39
0F
39
2F
36
0F
0E
37
10
3E
3A
39
34
34
11
0A
3D
31
0F
32
39
39
2F
10
3A
09
32
30
3D
38
2B
35
0E
11
11
3C
36
0F
0F
11
34
10
39
34
12
3F
11
33
08
30
3C
10
30
0A
36
0E
35
0C
31
0B
3D
32
00
00
00
00
00
00
00
00
00
00
00
00
00
00
00
00
00
00
00
00
00
00
00
00
00
00
00
00
00
00
00
00
00
00
00
00
00
00
00
00
00
00
00
00
00
00
00
00
00
00
00
00
00
00
00
00
00
00
00
00
00
00
00
00
00
00
00
00
00
00
00
00
00
00
00
00
00
00
00
00
33
0B
0E
07
10
35
10
32
11
36
0F
36
0D
0E
32
04
14
3A
37
38
0F
08
30
30
3B
34
32
07
13
3D
10
33
35
34
3C
30
3C
35
12
03
00
00
00
00
00
00
00
00
00
00
00
00
00
00
00
00
00
00
00
00
00
00
00
00
00
00
00
00
00
00
00
00
00
00
00
00
00
00
00
00
39
35
32
38
32
00
33
3C
11
33
10
3D
05
0F
06
07
11
38
3B
10
0E
34
10
0B
33
30
2A
39
06
0D
33
35
0E
11
34
2F
31
12
0F
0F
00
00
00
00
00
00
00
00
00
00
00
00
00
00
00
00
00
00
00
00
00
00
00
00
00
00
00
00
00
00
00
00
00
00
00
00
00
00
00
00
33
36
34
37
0B
12
39
0F
31
38
34
13
35
0E
0D
37
31
39
36
12
39
10
0A
02
09
11
34
04
0D
39
35
36
34
30
30
13
38
0C
0F
0B
00
00
00
00
00
00
00
00
00
00
00
00
00
00
00
00
00
00
00
00
00
00
00
00
00
00
00
00
00
00
00
00
00
00
00
00
00
00
00
00
11
0F
0F
01
38
31
0C
11
2A
37
0D
33
35
3B
37
10
3B
34
37
0E
35
32
10
36
34
03
0D
01
0C
0E
27
0F
0B
31
07
08
33
0E
39
38
00
00
00
00
00
00
00
00
00
00
00
00
00
00
00
00
00
00
00
00
00
00
00
00
00
00
00
00
00
00
00
00
00
00
00
00
00
00
00
00
31
0D
0B
31
31
36
0C
32
0F
36
0A
10
33
3C
04
05
0E
38
36
36
0E
31
12
10
38
36
35
10
3A
0C
10
35
35
0F
38
10
0D
35
36
35
33
34
2F
10
0A
32
0A
34
2F
34
0D
10
34
0E
2C
0F
10
30
0D
37
3F
08
2D
2F
32
0B
0E
0A
12
0B
32
3E
34
0F
34
2E
11
0E
0E
07
00
00
00
00
00
00
00
00
00
00
00
00
00
00
00
00
00
00
00
00
00
00
00
00
00
00
00
00
00
00
00
00
00
00
00
00
00
00
00
00
00
00
00
00
00
00
00
00
00
00
00
00
00
00
00
00
00
00
00
00
00
00
00
00
00
00
00
00
00
00
00
00
00
00
00
00
00
00
00
00
12
38
31
37
2E
36
3D
0E
33
3A
3C
39
0F
3C
10
35
11
32
12
36
34
11
10
0D
13
01
3E
34
0D
35
0F
0F
3E
32
31
33
09
34
3A
0D
32
12
3C
0F
2E
12
39
33
12
34
3F
37
2D
37
11
30
13
38
36
0E
11
0E
31
0A
33
39
3B
0C
35
3E
10
10
0E
30
37
31
09
30
09
0F
00
00
00
00
00
00
00
00
00
00
00
00
00
00
00
00
00
00
00
00
00
00
00
00
00
00
00
00
00
00
00
00
00
00
00
00
00
00
00
00
00
00
00
00
00
00
00
00
00
00
00
00
00
00
00
00
00
00
00
00
00
00
00
00
00
00
00
00
00
00
00
00
00
00
00
00
00
00
00
00
00
00
00
00
00
00
00
00
00
00
00
00
00
00
00
00
00
00
00
00
00
00
00
00
00
00
00
00
00
00
00
00
00
00
00
00
00
00
00
00
11
3A
11
08
10
34
3C
35
2F
0E
10
05
0C
35
32
39
10
0D
36
0E
37
0E
0F
2F
3A
01
33
07
31
37
2C
39
39
2F
0B
38
0D
33
08
11
00
00
00
00
00
00
00
00
00
00
00
00
00
00
00
00
00
00
00
00
00
00
00
00
00
00
00
00
00
00
00
00
00
00
00
00
00
00
00
00
0F
39
0F
35
12
34
3C
12
2F
10
3D
37
3A
36
11
36
36
0E
0D
3B
12
33
32
0F
3E
33
39
36
3D
39
10
37
38
35
0D
3B
0E
37
11
3C
00
00
00
00
00
00
00
00
00
00
00
00
00
00
00
00
00
00
00
00
00
00
00
00
00
00
00
00
00
00
00
00
00
00
00
00
00
00
00
00
00
00
00
00
00
00
00
00
00
00
00
00
00
00
00
00
00
00
00
00
00
00
00
00
00
00
00
00
00
00
00
00
00
00
00
00
00
00
00
00
10
35
2D
30
30
33
0D
34
10
08
39
0C
35
0E
0E
31
0E
0D
35
35
0C
31
32
0C
39
32
0A
0A
3A
08
33
0E
0C
0A
10
31
33
32
0E
0E
32
0C
2E
0E
10
35
0F
13
12
3B
38
36
3F
11
31
36
10
36
10
3B
34
08
32
30
3B
0F
31
07
3A
0F
2C
00
3C
2D
37
0C
0D
34
0B
11

